{
  "version": "1.0",
  "truncation": null,
  "padding": null,
  "added_tokens": [
    {
      "id": 0,
      "content": "<PRE>",
      "single_word": false,
      "lstrip": false,
      "rstrip": false,
      "normalized": false,
      "special": true
    },
    {
      "id": 1,
      "content": "<SUF>",
      "single_word": false,
      "lstrip": false,
      "rstrip": false,
      "normalized": false,
      "special": true
    },
    {
      "id": 2,
      "content": "<MID>",
      "single_word": false,
      "lstrip": false,
      "rstrip": false,
      "normalized": false,
      "special": true
    },
    {
      "id": 3,
      "content": "<|im_start|>",
      "single_word": false,
      "lstrip": false,
      "rstrip": false,
      "normalized": false,
      "special": true
    },
    {
      "id": 4,
      "content": "<|im_end|>",
      "single_word": false,
      "lstrip": false,
      "rstrip": false,
      "normalized": false,
      "special": true
    },
    {
      "id": 5,
      "content": "<|tool_result|>",
      "single_word": false,
      "lstrip": false,
      "rstrip": false,
      "normalized": false,
      "special": true
    }
  ],
  "normalizer": null,
  "pre_tokenizer": {
    "type": "ByteLevel",
    "add_prefix_space": false,
    "trim_offsets": true,
    "use_regex": true
  },
  "post_processor": {
    "type": "ByteLevel",
    "add_prefix_space": true,
    "trim_offsets": false,
    "use_regex": true
  },
  "decoder": {
    "type": "ByteLevel",
    "add_prefix_space": true,
    "trim_offsets": true,
    "use_regex": true
  },
  "model": {
    "type": "BPE",
    "dropout": null,
    "unk_token": null,
    "continuing_subword_prefix": null,
    "end_of_word_suffix": null,
    "fuse_unk": false,
    "byte_fallback": false,
    "ignore_merges": false,
    "vocab": {
      "<PRE>": 0,
      "<SUF>": 1,
      "<MID>": 2,
      "<|im_start|>": 3,
      "<|im_end|>": 4,
      "<|tool_result|>": 5,
      "!": 6,
      "\"": 7,
      "#": 8,
      "$": 9,
      "%": 10,
      "&": 11,
      "'": 12,
      "(": 13,
      ")": 14,
      "*": 15,
      "+": 16,
      ",": 17,
      "-": 18,
      ".": 19,
      "/": 20,
      "0": 21,
      "1": 22,
      "2": 23,
      "3": 24,
      "4": 25,
      "5": 26,
      "6": 27,
      "7": 28,
      "8": 29,
      "9": 30,
      ":": 31,
      ";": 32,
      "<": 33,
      "=": 34,
      ">": 35,
      "?": 36,
      "@": 37,
      "A": 38,
      "B": 39,
      "C": 40,
      "D": 41,
      "E": 42,
      "F": 43,
      "G": 44,
      "H": 45,
      "I": 46,
      "J": 47,
      "K": 48,
      "L": 49,
      "M": 50,
      "N": 51,
      "O": 52,
      "P": 53,
      "Q": 54,
      "R": 55,
      "S": 56,
      "T": 57,
      "U": 58,
      "V": 59,
      "W": 60,
      "X": 61,
      "Y": 62,
      "Z": 63,
      "[": 64,
      "\\": 65,
      "]": 66,
      "^": 67,
      "_": 68,
      "`": 69,
      "a": 70,
      "b": 71,
      "c": 72,
      "d": 73,
      "e": 74,
      "f": 75,
      "g": 76,
      "h": 77,
      "i": 78,
      "j": 79,
      "k": 80,
      "l": 81,
      "m": 82,
      "n": 83,
      "o": 84,
      "p": 85,
      "q": 86,
      "r": 87,
      "s": 88,
      "t": 89,
      "u": 90,
      "v": 91,
      "w": 92,
      "x": 93,
      "y": 94,
      "z": 95,
      "{": 96,
      "|": 97,
      "}": 98,
      "~": 99,
      "¡": 100,
      "¢": 101,
      "£": 102,
      "¤": 103,
      "¥": 104,
      "¦": 105,
      "§": 106,
      "¨": 107,
      "©": 108,
      "ª": 109,
      "«": 110,
      "¬": 111,
      "®": 112,
      "¯": 113,
      "°": 114,
      "±": 115,
      "²": 116,
      "³": 117,
      "´": 118,
      "µ": 119,
      "¶": 120,
      "·": 121,
      "¸": 122,
      "¹": 123,
      "º": 124,
      "»": 125,
      "¼": 126,
      "½": 127,
      "¾": 128,
      "¿": 129,
      "À": 130,
      "Á": 131,
      "Â": 132,
      "Ã": 133,
      "Ä": 134,
      "Å": 135,
      "Æ": 136,
      "Ç": 137,
      "È": 138,
      "É": 139,
      "Ê": 140,
      "Ë": 141,
      "Ì": 142,
      "Í": 143,
      "Î": 144,
      "Ï": 145,
      "Ð": 146,
      "Ñ": 147,
      "Ò": 148,
      "Ó": 149,
      "Ô": 150,
      "Õ": 151,
      "Ö": 152,
      "×": 153,
      "Ø": 154,
      "Ù": 155,
      "Ú": 156,
      "Û": 157,
      "Ü": 158,
      "Ý": 159,
      "Þ": 160,
      "ß": 161,
      "à": 162,
      "á": 163,
      "â": 164,
      "ã": 165,
      "ä": 166,
      "å": 167,
      "æ": 168,
      "ç": 169,
      "è": 170,
      "é": 171,
      "ê": 172,
      "ë": 173,
      "ì": 174,
      "í": 175,
      "î": 176,
      "ï": 177,
      "ð": 178,
      "ñ": 179,
      "ò": 180,
      "ó": 181,
      "ô": 182,
      "õ": 183,
      "ö": 184,
      "÷": 185,
      "ø": 186,
      "ù": 187,
      "ú": 188,
      "û": 189,
      "ü": 190,
      "ý": 191,
      "þ": 192,
      "ÿ": 193,
      "Ā": 194,
      "ā": 195,
      "Ă": 196,
      "ă": 197,
      "Ą": 198,
      "ą": 199,
      "Ć": 200,
      "ć": 201,
      "Ĉ": 202,
      "ĉ": 203,
      "Ċ": 204,
      "ċ": 205,
      "Č": 206,
      "č": 207,
      "Ď": 208,
      "ď": 209,
      "Đ": 210,
      "đ": 211,
      "Ē": 212,
      "ē": 213,
      "Ĕ": 214,
      "ĕ": 215,
      "Ė": 216,
      "ė": 217,
      "Ę": 218,
      "ę": 219,
      "Ě": 220,
      "ě": 221,
      "Ĝ": 222,
      "ĝ": 223,
      "Ğ": 224,
      "ğ": 225,
      "Ġ": 226,
      "ġ": 227,
      "Ģ": 228,
      "ģ": 229,
      "Ĥ": 230,
      "ĥ": 231,
      "Ħ": 232,
      "ħ": 233,
      "Ĩ": 234,
      "ĩ": 235,
      "Ī": 236,
      "ī": 237,
      "Ĭ": 238,
      "ĭ": 239,
      "Į": 240,
      "į": 241,
      "İ": 242,
      "ı": 243,
      "Ĳ": 244,
      "ĳ": 245,
      "Ĵ": 246,
      "ĵ": 247,
      "Ķ": 248,
      "ķ": 249,
      "ĸ": 250,
      "Ĺ": 251,
      "ĺ": 252,
      "Ļ": 253,
      "ļ": 254,
      "Ľ": 255,
      "ľ": 256,
      "Ŀ": 257,
      "ŀ": 258,
      "Ł": 259,
      "ł": 260,
      "Ń": 261,
      "čĊ": 262,
      "im": 263,
      "<|": 264,
      "|>": 265,
      "st": 266,
      "sta": 267,
      "in": 268,
      "nd": 269,
      "rt": 270,
      "end": 271,
      "start": 272,
      "ss": 273,
      "er": 274,
      "nt": 275,
      "ass": 276,
      "ser": 277,
      "ĠĠ": 278,
      "th": 279,
      "io": 280,
      "ug": 281,
      "at": 282,
      "Ġa": 283,
      "ista": 284,
      "user": 285,
      "assista": 286,
      "assistant": 287,
      "or": 288,
      "ht": 289,
      "oug": 290,
      "thoug": 291,
      "thought": 292,
      "``": 293,
      "Ġd": 294,
      "re": 295,
      "Ġp": 296,
      "Ġf": 297,
      "int": 298,
      "lo": 299,
      "Ġi": 300,
      "el": 301,
      "Ġc": 302,
      ".<|": 303,
      "ing": 304,
      "Ġ{": 305,
      "ĠĠĠ": 306,
      "loat": 307,
      "li": 308,
      "dio": 309,
      "udio": 310,
      "oc": 311,
      "le": 312,
      "Ġg": 313,
      "Ġv": 314,
      "Ġn": 315,
      "te": 316,
      "ple": 317,
      ".<": 318,
      "Ġfor": 319,
      ".</": 320,
      "lass": 321,
      "ess": 322,
      "ain": 323,
      "```": 324,
      "Ġgain": 325,
      "++": 326,
      "roc": 327,
      "rocess": 328,
      "ion": 329,
      "*=": 330,
      ";++": 331,
      "float": 332,
      "id": 333,
      "oid": 334,
      "Ġint": 335,
      "pp": 336,
      "me": 337,
      "ea": 338,
      "ck": 339,
      "Ġth": 340,
      "ĠR": 341,
      "ay": 342,
      "Ch": 343,
      "ell": 344,
      "om": 345,
      "tim": 346,
      "Ġaudio": 347,
      "Ġis": 348,
      "ation": 349,
      "ve": 350,
      "Ġw": 351,
      "ant": 352,
      "ut": 353,
      "lug": 354,
      "lugin": 355,
      "Ġme": 356,
      "Ġt": 357,
      "rea": 358,
      "time": 359,
      "Ġplugin": 360,
      "Ġprocess": 361,
      "Tell": 362,
      "bo": 363,
      "Ġabo": 364,
      "Ġabout": 365,
      "()": 366,
      "Audio": 367,
      "Mo": 368,
      "My": 369,
      "Pl": 370,
      "To": 371,
      "are": 372,
      "eck": 373,
      "kel": 374,
      "lation": 375,
      "ltime": 376,
      "pare": 377,
      "Ġin": 378,
      "Ġli": 379,
      "ĠMo": 380,
      "iolation": 381,
      "repare": 382,
      "Ġprepare": 383,
      "Ġviolation": 384,
      "ealtime": 385,
      "Ġthrea": 386,
      "ĠRealtime": 387,
      "Check": 388,
      "Ġto": 389,
      "().<|": 390,
      "Play": 391,
      "ToPlay": 392,
      "kely": 393,
      "Ġlikely": 394,
      "ĠMove": 395,
      "ĠprepareToPlay": 396,
      "Ġthread": 397,
      "Ġclass": 398,
      "Ġcom": 399,
      "Ġcomple": 400,
      "imple": 401,
      "Simple": 402,
      "User": 403,
      "Wr": 404,
      "bli": 405,
      "class": 406,
      "cpp": 407,
      "ite": 408,
      "pu": 409,
      "};": 410,
      "Ġ=": 411,
      "Ġ}": 412,
      "Ġ*=": 413,
      "ĠSimple": 414,
      "Ġand": 415,
      "Ġfloat": 416,
      "Ġvoid": 417,
      "```<|": 418,
      "Ġwant": 419,
      "Ġcomplete": 420,
      "Write": 421,
      "blic": 422,
      "public": 423,
      "Ġwants": 424,
      "Ġ0": 425,
      "ort": 426,
      "ter": 427,
      "ĠD": 428,
      "::": 429,
      "ID": 430,
      "MID": 431,
      "PR": 432,
      "SU": 433,
      "]*=": 434,
      "for": 435,
      "process": 436,
      "void": 437,
      "}<": 438,
      "Ġ<": 439,
      "PRE": 440,
      "SUF": 441,
      "pping": 442,
      "ist": 443,
      "us": 444,
      "Ġo": 445,
      ";<|": 446,
      "Ġb": 447,
      "istort": 448,
      "an": 449,
      "si": 450,
      "ĠC": 451,
      "opping": 452,
      "ate": 453,
      "?<|": 454,
      "Wh": 455,
      "What": 456,
      "ning": 457,
      "Ġbu": 458,
      "ere": 459,
      "ra": 460,
      "Lim": 461,
      "iter": 462,
      "ĠLim": 463,
      "ĠLimiter": 464,
      "EQ": 465,
      "ĠEQ": 466,
      "ev": 467,
      "erb": 468,
      "ĠRev": 469,
      "ĠReverb": 470,
      "Foc": 471,
      "Ġon": 472,
      "Focus": 473,
      "elay": 474,
      "ĠDelay": 475,
      "pre": 476,
      "ssor": 477,
      "ompre": 478,
      "ĠCompre": 479,
      "ĠCompressor": 480,
      "ĠCh": 481,
      "orus": 482,
      "ĠChorus": 483,
      "Ġde": 484,
      "Fl": 485,
      "ger": 486,
      "ĠFl": 487,
      "anger": 488,
      "ĠFlanger": 489,
      "Ġm": 490,
      "Ph": 491,
      "aser": 492,
      "ĠPh": 493,
      "ĠPhaser": 494,
      "ĠDistort": 495,
      "ĠDistortion": 496,
      "Ġfi": 497,
      "Ġne": 498,
      "Lea": 499,
      "rn": 500,
      "Ġwell": 501,
      "Learn": 502,
      "port": 503,
      "Ġim": 504,
      "portant": 505,
      "Ġimportant": 506,
      "Ġop": 507,
      "ment": 508,
      "Gate": 509,
      "ĠGate": 510,
      "ead": 511,
      "Whats": 512,
      "lock": 513,
      "zz": 514,
      "Ġbuzz": 515,
      "Ġbuzzing": 516,
      "ch": 517,
      "tch": 518,
      "litch": 519,
      "Ġglitch": 520,
      "Ġglitching": 521,
      "He": 522,
      "Hey": 523,
      "Ġpopping": 524,
      "up": 525,
      "ling": 526,
      "Ġdistort": 527,
      "Ġcra": 528,
      "ckling": 529,
      "Ġdistorting": 530,
      "Ġcrackling": 531,
      "ropping": 532,
      "Ġdropping": 533,
      "Ġcli": 534,
      "Ġclipping": 535,
      "Hi": 536,
      "Ġthere": 537,
      "Ġst": 538,
      "utter": 539,
      "Ġstutter": 540,
      "Ġstuttering": 541,
      "nc": 542,
      "gn": 543,
      "sign": 544,
      "lter": 545,
      "Ġs": 546,
      "ff": 547,
      "Ġdesign": 548,
      "late": 549,
      "ncy": 550,
      "latency": 551,
      "Ġfilter": 552,
      "Ġco": 553,
      "al": 554,
      "ffer": 555,
      "Here": 556,
      "Ġnew": 557,
      "as": 558,
      "Ġthe": 559,
      "Ġtas": 560,
      "Ġtask": 561,
      "iz": 562,
      "timiz": 563,
      "Ġoptimiz": 564,
      "Ġoptimization": 565,
      "real": 566,
      "Ye": 567,
      "Yes": 568,
      "CE": 569,
      "JU": 570,
      "pment": 571,
      "wor": 572,
      "Ġfra": 573,
      "lopment": 574,
      "mewor": 575,
      "velopment": 576,
      "Ġdevelopment": 577,
      "JUCE": 578,
      "Ġframewor": 579,
      "Ġframework": 580,
      "SP": 581,
      "ct": 582,
      "ect": 583,
      "Ġprocessing": 584,
      "Read": 585,
      "Ready": 586,
      "ed": 587,
      "ou": 588,
      "you": 589,
      "Ġyou": 590,
      "Ġdo": 591,
      "Ġneed": 592,
      "Ġlatency": 593,
      "Sh": 594,
      "ow": 595,
      "Show": 596,
      "esi": 597,
      "hesi": 598,
      "ynt": 599,
      "hesis": 600,
      "ynthesis": 601,
      "cation": 602,
      "llo": 603,
      "Ġallo": 604,
      "Ġallocation": 605,
      "ag": 606,
      "ement": 607,
      "anag": 608,
      "Ġmanag": 609,
      "Ġmanagement": 610,
      "erat": 611,
      "Ġoperat": 612,
      "Ġoperator": 613,
      "Go": 614,
      "ent": 615,
      "head": 616,
      "Ġlock": 617,
      "ntent": 618,
      "Ġahead": 619,
      "Ġcontent": 620,
      "Ġcontention": 621,
      "Ġcal": 622,
      "Ġblock": 623,
      "Ġcall": 624,
      "Ġblocking": 625,
      "IO": 626,
      "ĠIO": 627,
      "Ġfile": 628,
      "Mor": 629,
      "Ġbuffer": 630,
      "Morning": 631,
      "List": 632,
      "ening": 633,
      "ute": 634,
      "Ġmute": 635,
      "Listening": 636,
      "Ġmutex": 637,
      "Ġreal": 638,
      "Eve": 639,
      "Evening": 640,
      "ze": 641,
      "Ġre": 642,
      "Ġvect": 643,
      "ĠDSP": 644,
      "size": 645,
      "Ġresize": 646,
      "Ġvector": 647,
      "ĠJUCE": 648,
      "Sup": 649,
      "Hel": 650,
      "Hello": 651,
      "Ġsynthesis": 652,
      "Ġup": 653,
      "Yo": 654,
      ";<": 655,
      "od": 656,
      "Ġcle": 657,
      "Ġclean": 658,
      "ld": 659,
      "tion": 660,
      "unc": 661,
      "Ġfunc": 662,
      "Ġold": 663,
      "Ġfunction": 664,
      "de": 665,
      "Ġcode": 666,
      "fi": 667,
      "filter": 668,
      "am": 669,
      "Ġsam": 670,
      "Ġsample": 671,
      "bu": 672,
      "Ġsign": 673,
      "essy": 674,
      "Ġmessy": 675,
      "buffer": 676,
      "Ġsignal": 677,
      "gy": 678,
      "uggy": 679,
      "Ġbuggy": 680,
      "plugin": 681,
      "ast": 682,
      "Ġfast": 683,
      "ad": 684,
      "synthesis": 685,
      "Ġbad": 686,
      "Ġcomplex": 687,
      "audio": 688,
      "ule": 689,
      "Ġmod": 690,
      "Ġmodule": 691,
      "DSP": 692,
      "eff": 693,
      "Ġeff": 694,
      "Ġeffect": 695,
      "13": 696,
      "19": 697,
      "43": 698,
      "low": 699,
      "Ġslow": 700,
      "16": 701,
      "Ġsimple": 702,
      "24": 703,
      "61": 704,
      "en": 705,
      "ken": 706,
      "oken": 707,
      "roken": 708,
      "Ġbroken": 709,
      "42": 710,
      "99": 711,
      "55": 712,
      "84": 713,
      "23": 714,
      "54": 715,
      "ood": 716,
      "Ġgood": 717,
      "72": 718,
      "18": 719,
      "29": 720,
      "36": 721,
      "47": 722,
      "91": 723,
      "56": 724,
      "65": 725,
      "69": 726,
      "22": 727,
      "25": 728,
      "57": 729,
      "95": 730,
      "11": 731,
      "31": 732,
      "37": 733,
      "58": 734,
      "71": 735,
      "83": 736,
      "89": 737,
      "32": 738,
      "41": 739,
      "74": 740,
      "85": 741,
      "14": 742,
      "27": 743,
      "45": 744,
      "48": 745,
      "49": 746,
      "63": 747,
      "86": 748,
      "35": 749,
      "59": 750,
      "81": 751,
      "87": 752,
      "21": 753,
      "39": 754,
      "44": 755,
      "51": 756,
      "53": 757,
      "64": 758,
      "77": 759,
      "34": 760,
      "62": 761,
      "67": 762,
      "79": 763,
      "94": 764,
      "28": 765,
      "52": 766,
      "92": 767,
      "93": 768,
      "66": 769,
      "38": 770,
      "82": 771,
      "96": 772,
      "26": 773,
      "15": 774,
      "46": 775,
      "68": 776,
      "73": 777,
      "17": 778,
      "98": 779,
      "12": 780,
      "78": 781,
      "97": 782,
      "75": 783,
      "33": 784,
      "76": 785,
      "88": 786,
      "Ġ1": 787
    },
    "merges": [
      [
        "č",
        "Ċ"
      ],
      [
        "i",
        "m"
      ],
      [
        "<",
        "|"
      ],
      [
        "|",
        ">"
      ],
      [
        "s",
        "t"
      ],
      [
        "st",
        "a"
      ],
      [
        "i",
        "n"
      ],
      [
        "n",
        "d"
      ],
      [
        "r",
        "t"
      ],
      [
        "e",
        "nd"
      ],
      [
        "sta",
        "rt"
      ],
      [
        "s",
        "s"
      ],
      [
        "e",
        "r"
      ],
      [
        "n",
        "t"
      ],
      [
        "a",
        "ss"
      ],
      [
        "s",
        "er"
      ],
      [
        "Ġ",
        "Ġ"
      ],
      [
        "t",
        "h"
      ],
      [
        "i",
        "o"
      ],
      [
        "u",
        "g"
      ],
      [
        "a",
        "t"
      ],
      [
        "Ġ",
        "a"
      ],
      [
        "i",
        "sta"
      ],
      [
        "u",
        "ser"
      ],
      [
        "ass",
        "ista"
      ],
      [
        "assista",
        "nt"
      ],
      [
        "o",
        "r"
      ],
      [
        "h",
        "t"
      ],
      [
        "o",
        "ug"
      ],
      [
        "th",
        "oug"
      ],
      [
        "thoug",
        "ht"
      ],
      [
        "`",
        "`"
      ],
      [
        "Ġ",
        "d"
      ],
      [
        "r",
        "e"
      ],
      [
        "Ġ",
        "p"
      ],
      [
        "Ġ",
        "f"
      ],
      [
        "in",
        "t"
      ],
      [
        "l",
        "o"
      ],
      [
        "Ġ",
        "i"
      ],
      [
        "e",
        "l"
      ],
      [
        "Ġ",
        "c"
      ],
      [
        ".",
        "<|"
      ],
      [
        "in",
        "g"
      ],
      [
        "Ġ",
        "{"
      ],
      [
        "ĠĠ",
        "Ġ"
      ],
      [
        "lo",
        "at"
      ],
      [
        "l",
        "i"
      ],
      [
        "d",
        "io"
      ],
      [
        "u",
        "dio"
      ],
      [
        "o",
        "c"
      ],
      [
        "l",
        "e"
      ],
      [
        "Ġ",
        "g"
      ],
      [
        "Ġ",
        "v"
      ],
      [
        "Ġ",
        "n"
      ],
      [
        "t",
        "e"
      ],
      [
        "p",
        "le"
      ],
      [
        ".",
        "<"
      ],
      [
        "Ġf",
        "or"
      ],
      [
        ".<",
        "/"
      ],
      [
        "l",
        "ass"
      ],
      [
        "e",
        "ss"
      ],
      [
        "a",
        "in"
      ],
      [
        "``",
        "`"
      ],
      [
        "Ġg",
        "ain"
      ],
      [
        "+",
        "+"
      ],
      [
        "r",
        "oc"
      ],
      [
        "roc",
        "ess"
      ],
      [
        "io",
        "n"
      ],
      [
        "*",
        "="
      ],
      [
        ";",
        "++"
      ],
      [
        "f",
        "loat"
      ],
      [
        "i",
        "d"
      ],
      [
        "o",
        "id"
      ],
      [
        "Ġ",
        "int"
      ],
      [
        "p",
        "p"
      ],
      [
        "m",
        "e"
      ],
      [
        "e",
        "a"
      ],
      [
        "c",
        "k"
      ],
      [
        "Ġ",
        "th"
      ],
      [
        "Ġ",
        "R"
      ],
      [
        "a",
        "y"
      ],
      [
        "C",
        "h"
      ],
      [
        "el",
        "l"
      ],
      [
        "o",
        "m"
      ],
      [
        "t",
        "im"
      ],
      [
        "Ġa",
        "udio"
      ],
      [
        "Ġi",
        "s"
      ],
      [
        "at",
        "ion"
      ],
      [
        "v",
        "e"
      ],
      [
        "Ġ",
        "w"
      ],
      [
        "a",
        "nt"
      ],
      [
        "u",
        "t"
      ],
      [
        "l",
        "ug"
      ],
      [
        "lug",
        "in"
      ],
      [
        "Ġ",
        "me"
      ],
      [
        "Ġ",
        "t"
      ],
      [
        "re",
        "a"
      ],
      [
        "tim",
        "e"
      ],
      [
        "Ġp",
        "lugin"
      ],
      [
        "Ġp",
        "rocess"
      ],
      [
        "T",
        "ell"
      ],
      [
        "b",
        "o"
      ],
      [
        "Ġa",
        "bo"
      ],
      [
        "Ġabo",
        "ut"
      ],
      [
        "(",
        ")"
      ],
      [
        "A",
        "udio"
      ],
      [
        "M",
        "o"
      ],
      [
        "M",
        "y"
      ],
      [
        "P",
        "l"
      ],
      [
        "T",
        "o"
      ],
      [
        "a",
        "re"
      ],
      [
        "e",
        "ck"
      ],
      [
        "k",
        "el"
      ],
      [
        "l",
        "ation"
      ],
      [
        "l",
        "time"
      ],
      [
        "p",
        "are"
      ],
      [
        "Ġ",
        "in"
      ],
      [
        "Ġ",
        "li"
      ],
      [
        "Ġ",
        "Mo"
      ],
      [
        "io",
        "lation"
      ],
      [
        "re",
        "pare"
      ],
      [
        "Ġp",
        "repare"
      ],
      [
        "Ġv",
        "iolation"
      ],
      [
        "ea",
        "ltime"
      ],
      [
        "Ġth",
        "rea"
      ],
      [
        "ĠR",
        "ealtime"
      ],
      [
        "Ch",
        "eck"
      ],
      [
        "Ġt",
        "o"
      ],
      [
        "()",
        ".<|"
      ],
      [
        "Pl",
        "ay"
      ],
      [
        "To",
        "Play"
      ],
      [
        "kel",
        "y"
      ],
      [
        "Ġli",
        "kely"
      ],
      [
        "ĠMo",
        "ve"
      ],
      [
        "Ġprepare",
        "ToPlay"
      ],
      [
        "Ġthrea",
        "d"
      ],
      [
        "Ġc",
        "lass"
      ],
      [
        "Ġc",
        "om"
      ],
      [
        "Ġcom",
        "ple"
      ],
      [
        "im",
        "ple"
      ],
      [
        "S",
        "imple"
      ],
      [
        "U",
        "ser"
      ],
      [
        "W",
        "r"
      ],
      [
        "b",
        "li"
      ],
      [
        "c",
        "lass"
      ],
      [
        "c",
        "pp"
      ],
      [
        "i",
        "te"
      ],
      [
        "p",
        "u"
      ],
      [
        "}",
        ";"
      ],
      [
        "Ġ",
        "="
      ],
      [
        "Ġ",
        "}"
      ],
      [
        "Ġ",
        "*="
      ],
      [
        "Ġ",
        "Simple"
      ],
      [
        "Ġa",
        "nd"
      ],
      [
        "Ġf",
        "loat"
      ],
      [
        "Ġv",
        "oid"
      ],
      [
        "```",
        "<|"
      ],
      [
        "Ġw",
        "ant"
      ],
      [
        "Ġcomple",
        "te"
      ],
      [
        "Wr",
        "ite"
      ],
      [
        "bli",
        "c"
      ],
      [
        "pu",
        "blic"
      ],
      [
        "Ġwant",
        "s"
      ],
      [
        "Ġ",
        "0"
      ],
      [
        "o",
        "rt"
      ],
      [
        "t",
        "er"
      ],
      [
        "Ġ",
        "D"
      ],
      [
        ":",
        ":"
      ],
      [
        "I",
        "D"
      ],
      [
        "M",
        "ID"
      ],
      [
        "P",
        "R"
      ],
      [
        "S",
        "U"
      ],
      [
        "]",
        "*="
      ],
      [
        "f",
        "or"
      ],
      [
        "p",
        "rocess"
      ],
      [
        "v",
        "oid"
      ],
      [
        "}",
        "<"
      ],
      [
        "Ġ",
        "<"
      ],
      [
        "PR",
        "E"
      ],
      [
        "SU",
        "F"
      ],
      [
        "pp",
        "ing"
      ],
      [
        "i",
        "st"
      ],
      [
        "u",
        "s"
      ],
      [
        "Ġ",
        "o"
      ],
      [
        ";",
        "<|"
      ],
      [
        "Ġ",
        "b"
      ],
      [
        "ist",
        "ort"
      ],
      [
        "a",
        "n"
      ],
      [
        "s",
        "i"
      ],
      [
        "Ġ",
        "C"
      ],
      [
        "o",
        "pping"
      ],
      [
        "at",
        "e"
      ],
      [
        "?",
        "<|"
      ],
      [
        "W",
        "h"
      ],
      [
        "Wh",
        "at"
      ],
      [
        "n",
        "ing"
      ],
      [
        "Ġb",
        "u"
      ],
      [
        "er",
        "e"
      ],
      [
        "r",
        "a"
      ],
      [
        "L",
        "im"
      ],
      [
        "i",
        "ter"
      ],
      [
        "Ġ",
        "Lim"
      ],
      [
        "ĠLim",
        "iter"
      ],
      [
        "E",
        "Q"
      ],
      [
        "Ġ",
        "EQ"
      ],
      [
        "e",
        "v"
      ],
      [
        "er",
        "b"
      ],
      [
        "ĠR",
        "ev"
      ],
      [
        "ĠRev",
        "erb"
      ],
      [
        "F",
        "oc"
      ],
      [
        "Ġo",
        "n"
      ],
      [
        "Foc",
        "us"
      ],
      [
        "el",
        "ay"
      ],
      [
        "ĠD",
        "elay"
      ],
      [
        "p",
        "re"
      ],
      [
        "ss",
        "or"
      ],
      [
        "om",
        "pre"
      ],
      [
        "ĠC",
        "ompre"
      ],
      [
        "ĠCompre",
        "ssor"
      ],
      [
        "Ġ",
        "Ch"
      ],
      [
        "or",
        "us"
      ],
      [
        "ĠCh",
        "orus"
      ],
      [
        "Ġd",
        "e"
      ],
      [
        "F",
        "l"
      ],
      [
        "g",
        "er"
      ],
      [
        "Ġ",
        "Fl"
      ],
      [
        "an",
        "ger"
      ],
      [
        "ĠFl",
        "anger"
      ],
      [
        "Ġ",
        "m"
      ],
      [
        "P",
        "h"
      ],
      [
        "a",
        "ser"
      ],
      [
        "Ġ",
        "Ph"
      ],
      [
        "ĠPh",
        "aser"
      ],
      [
        "ĠD",
        "istort"
      ],
      [
        "ĠDistort",
        "ion"
      ],
      [
        "Ġf",
        "i"
      ],
      [
        "Ġn",
        "e"
      ],
      [
        "L",
        "ea"
      ],
      [
        "r",
        "n"
      ],
      [
        "Ġw",
        "ell"
      ],
      [
        "Lea",
        "rn"
      ],
      [
        "p",
        "ort"
      ],
      [
        "Ġ",
        "im"
      ],
      [
        "port",
        "ant"
      ],
      [
        "Ġim",
        "portant"
      ],
      [
        "Ġo",
        "p"
      ],
      [
        "me",
        "nt"
      ],
      [
        "G",
        "ate"
      ],
      [
        "Ġ",
        "Gate"
      ],
      [
        "ea",
        "d"
      ],
      [
        "What",
        "s"
      ],
      [
        "lo",
        "ck"
      ],
      [
        "z",
        "z"
      ],
      [
        "Ġbu",
        "zz"
      ],
      [
        "Ġbuzz",
        "ing"
      ],
      [
        "c",
        "h"
      ],
      [
        "t",
        "ch"
      ],
      [
        "li",
        "tch"
      ],
      [
        "Ġg",
        "litch"
      ],
      [
        "Ġglitch",
        "ing"
      ],
      [
        "H",
        "e"
      ],
      [
        "He",
        "y"
      ],
      [
        "Ġp",
        "opping"
      ],
      [
        "u",
        "p"
      ],
      [
        "l",
        "ing"
      ],
      [
        "Ġd",
        "istort"
      ],
      [
        "Ġc",
        "ra"
      ],
      [
        "ck",
        "ling"
      ],
      [
        "Ġdistort",
        "ing"
      ],
      [
        "Ġcra",
        "ckling"
      ],
      [
        "r",
        "opping"
      ],
      [
        "Ġd",
        "ropping"
      ],
      [
        "Ġc",
        "li"
      ],
      [
        "Ġcli",
        "pping"
      ],
      [
        "H",
        "i"
      ],
      [
        "Ġth",
        "ere"
      ],
      [
        "Ġ",
        "st"
      ],
      [
        "ut",
        "ter"
      ],
      [
        "Ġst",
        "utter"
      ],
      [
        "Ġstutter",
        "ing"
      ],
      [
        "n",
        "c"
      ],
      [
        "g",
        "n"
      ],
      [
        "si",
        "gn"
      ],
      [
        "l",
        "ter"
      ],
      [
        "Ġ",
        "s"
      ],
      [
        "f",
        "f"
      ],
      [
        "Ġde",
        "sign"
      ],
      [
        "l",
        "ate"
      ],
      [
        "nc",
        "y"
      ],
      [
        "late",
        "ncy"
      ],
      [
        "Ġfi",
        "lter"
      ],
      [
        "Ġc",
        "o"
      ],
      [
        "a",
        "l"
      ],
      [
        "ff",
        "er"
      ],
      [
        "H",
        "ere"
      ],
      [
        "Ġne",
        "w"
      ],
      [
        "a",
        "s"
      ],
      [
        "Ġth",
        "e"
      ],
      [
        "Ġt",
        "as"
      ],
      [
        "Ġtas",
        "k"
      ],
      [
        "i",
        "z"
      ],
      [
        "tim",
        "iz"
      ],
      [
        "Ġop",
        "timiz"
      ],
      [
        "Ġoptimiz",
        "ation"
      ],
      [
        "rea",
        "l"
      ],
      [
        "Y",
        "e"
      ],
      [
        "Ye",
        "s"
      ],
      [
        "C",
        "E"
      ],
      [
        "J",
        "U"
      ],
      [
        "p",
        "ment"
      ],
      [
        "w",
        "or"
      ],
      [
        "Ġf",
        "ra"
      ],
      [
        "lo",
        "pment"
      ],
      [
        "me",
        "wor"
      ],
      [
        "ve",
        "lopment"
      ],
      [
        "Ġde",
        "velopment"
      ],
      [
        "JU",
        "CE"
      ],
      [
        "Ġfra",
        "mewor"
      ],
      [
        "Ġframewor",
        "k"
      ],
      [
        "S",
        "P"
      ],
      [
        "c",
        "t"
      ],
      [
        "e",
        "ct"
      ],
      [
        "Ġprocess",
        "ing"
      ],
      [
        "R",
        "ead"
      ],
      [
        "Read",
        "y"
      ],
      [
        "e",
        "d"
      ],
      [
        "o",
        "u"
      ],
      [
        "y",
        "ou"
      ],
      [
        "Ġ",
        "you"
      ],
      [
        "Ġd",
        "o"
      ],
      [
        "Ġne",
        "ed"
      ],
      [
        "Ġ",
        "latency"
      ],
      [
        "S",
        "h"
      ],
      [
        "o",
        "w"
      ],
      [
        "Sh",
        "ow"
      ],
      [
        "e",
        "si"
      ],
      [
        "h",
        "esi"
      ],
      [
        "y",
        "nt"
      ],
      [
        "hesi",
        "s"
      ],
      [
        "ynt",
        "hesis"
      ],
      [
        "c",
        "ation"
      ],
      [
        "l",
        "lo"
      ],
      [
        "Ġa",
        "llo"
      ],
      [
        "Ġallo",
        "cation"
      ],
      [
        "a",
        "g"
      ],
      [
        "e",
        "ment"
      ],
      [
        "an",
        "ag"
      ],
      [
        "Ġm",
        "anag"
      ],
      [
        "Ġmanag",
        "ement"
      ],
      [
        "er",
        "at"
      ],
      [
        "Ġop",
        "erat"
      ],
      [
        "Ġoperat",
        "or"
      ],
      [
        "G",
        "o"
      ],
      [
        "e",
        "nt"
      ],
      [
        "h",
        "ead"
      ],
      [
        "Ġ",
        "lock"
      ],
      [
        "nt",
        "ent"
      ],
      [
        "Ġa",
        "head"
      ],
      [
        "Ġco",
        "ntent"
      ],
      [
        "Ġcontent",
        "ion"
      ],
      [
        "Ġc",
        "al"
      ],
      [
        "Ġb",
        "lock"
      ],
      [
        "Ġcal",
        "l"
      ],
      [
        "Ġblock",
        "ing"
      ],
      [
        "I",
        "O"
      ],
      [
        "Ġ",
        "IO"
      ],
      [
        "Ġfi",
        "le"
      ],
      [
        "M",
        "or"
      ],
      [
        "Ġbu",
        "ffer"
      ],
      [
        "Mor",
        "ning"
      ],
      [
        "L",
        "ist"
      ],
      [
        "e",
        "ning"
      ],
      [
        "u",
        "te"
      ],
      [
        "Ġm",
        "ute"
      ],
      [
        "List",
        "ening"
      ],
      [
        "Ġmute",
        "x"
      ],
      [
        "Ġ",
        "real"
      ],
      [
        "E",
        "ve"
      ],
      [
        "Eve",
        "ning"
      ],
      [
        "z",
        "e"
      ],
      [
        "Ġ",
        "re"
      ],
      [
        "Ġv",
        "ect"
      ],
      [
        "ĠD",
        "SP"
      ],
      [
        "si",
        "ze"
      ],
      [
        "Ġre",
        "size"
      ],
      [
        "Ġvect",
        "or"
      ],
      [
        "Ġ",
        "JUCE"
      ],
      [
        "S",
        "up"
      ],
      [
        "H",
        "el"
      ],
      [
        "Hel",
        "lo"
      ],
      [
        "Ġs",
        "ynthesis"
      ],
      [
        "Ġ",
        "up"
      ],
      [
        "Y",
        "o"
      ],
      [
        ";",
        "<"
      ],
      [
        "o",
        "d"
      ],
      [
        "Ġc",
        "le"
      ],
      [
        "Ġcle",
        "an"
      ],
      [
        "l",
        "d"
      ],
      [
        "t",
        "ion"
      ],
      [
        "u",
        "nc"
      ],
      [
        "Ġf",
        "unc"
      ],
      [
        "Ġo",
        "ld"
      ],
      [
        "Ġfunc",
        "tion"
      ],
      [
        "d",
        "e"
      ],
      [
        "Ġco",
        "de"
      ],
      [
        "f",
        "i"
      ],
      [
        "fi",
        "lter"
      ],
      [
        "a",
        "m"
      ],
      [
        "Ġs",
        "am"
      ],
      [
        "Ġsam",
        "ple"
      ],
      [
        "b",
        "u"
      ],
      [
        "Ġ",
        "sign"
      ],
      [
        "ess",
        "y"
      ],
      [
        "Ġm",
        "essy"
      ],
      [
        "bu",
        "ffer"
      ],
      [
        "Ġsign",
        "al"
      ],
      [
        "g",
        "y"
      ],
      [
        "ug",
        "gy"
      ],
      [
        "Ġb",
        "uggy"
      ],
      [
        "p",
        "lugin"
      ],
      [
        "a",
        "st"
      ],
      [
        "Ġf",
        "ast"
      ],
      [
        "a",
        "d"
      ],
      [
        "s",
        "ynthesis"
      ],
      [
        "Ġb",
        "ad"
      ],
      [
        "Ġcomple",
        "x"
      ],
      [
        "a",
        "udio"
      ],
      [
        "u",
        "le"
      ],
      [
        "Ġm",
        "od"
      ],
      [
        "Ġmod",
        "ule"
      ],
      [
        "D",
        "SP"
      ],
      [
        "e",
        "ff"
      ],
      [
        "Ġ",
        "eff"
      ],
      [
        "Ġeff",
        "ect"
      ],
      [
        "1",
        "3"
      ],
      [
        "1",
        "9"
      ],
      [
        "4",
        "3"
      ],
      [
        "lo",
        "w"
      ],
      [
        "Ġs",
        "low"
      ],
      [
        "1",
        "6"
      ],
      [
        "Ġs",
        "imple"
      ],
      [
        "2",
        "4"
      ],
      [
        "6",
        "1"
      ],
      [
        "e",
        "n"
      ],
      [
        "k",
        "en"
      ],
      [
        "o",
        "ken"
      ],
      [
        "r",
        "oken"
      ],
      [
        "Ġb",
        "roken"
      ],
      [
        "4",
        "2"
      ],
      [
        "9",
        "9"
      ],
      [
        "5",
        "5"
      ],
      [
        "8",
        "4"
      ],
      [
        "2",
        "3"
      ],
      [
        "5",
        "4"
      ],
      [
        "o",
        "od"
      ],
      [
        "Ġg",
        "ood"
      ],
      [
        "7",
        "2"
      ],
      [
        "1",
        "8"
      ],
      [
        "2",
        "9"
      ],
      [
        "3",
        "6"
      ],
      [
        "4",
        "7"
      ],
      [
        "9",
        "1"
      ],
      [
        "5",
        "6"
      ],
      [
        "6",
        "5"
      ],
      [
        "6",
        "9"
      ],
      [
        "2",
        "2"
      ],
      [
        "2",
        "5"
      ],
      [
        "5",
        "7"
      ],
      [
        "9",
        "5"
      ],
      [
        "1",
        "1"
      ],
      [
        "3",
        "1"
      ],
      [
        "3",
        "7"
      ],
      [
        "5",
        "8"
      ],
      [
        "7",
        "1"
      ],
      [
        "8",
        "3"
      ],
      [
        "8",
        "9"
      ],
      [
        "3",
        "2"
      ],
      [
        "4",
        "1"
      ],
      [
        "7",
        "4"
      ],
      [
        "8",
        "5"
      ],
      [
        "1",
        "4"
      ],
      [
        "2",
        "7"
      ],
      [
        "4",
        "5"
      ],
      [
        "4",
        "8"
      ],
      [
        "4",
        "9"
      ],
      [
        "6",
        "3"
      ],
      [
        "8",
        "6"
      ],
      [
        "3",
        "5"
      ],
      [
        "5",
        "9"
      ],
      [
        "8",
        "1"
      ],
      [
        "8",
        "7"
      ],
      [
        "2",
        "1"
      ],
      [
        "3",
        "9"
      ],
      [
        "4",
        "4"
      ],
      [
        "5",
        "1"
      ],
      [
        "5",
        "3"
      ],
      [
        "6",
        "4"
      ],
      [
        "7",
        "7"
      ],
      [
        "3",
        "4"
      ],
      [
        "6",
        "2"
      ],
      [
        "6",
        "7"
      ],
      [
        "7",
        "9"
      ],
      [
        "9",
        "4"
      ],
      [
        "2",
        "8"
      ],
      [
        "5",
        "2"
      ],
      [
        "9",
        "2"
      ],
      [
        "9",
        "3"
      ],
      [
        "6",
        "6"
      ],
      [
        "3",
        "8"
      ],
      [
        "8",
        "2"
      ],
      [
        "9",
        "6"
      ],
      [
        "2",
        "6"
      ],
      [
        "1",
        "5"
      ],
      [
        "4",
        "6"
      ],
      [
        "6",
        "8"
      ],
      [
        "7",
        "3"
      ],
      [
        "1",
        "7"
      ],
      [
        "9",
        "8"
      ],
      [
        "1",
        "2"
      ],
      [
        "7",
        "8"
      ],
      [
        "9",
        "7"
      ],
      [
        "7",
        "5"
      ],
      [
        "3",
        "3"
      ],
      [
        "7",
        "6"
      ],
      [
        "8",
        "8"
      ],
      [
        "Ġ",
        "1"
      ]
    ]
  }
}