{
  "version": "1.0",
  "truncation": null,
  "padding": null,
  "added_tokens": [
    {
      "id": 0,
      "content": "<PRE>",
      "single_word": false,
      "lstrip": false,
      "rstrip": false,
      "normalized": false,
      "special": true
    },
    {
      "id": 1,
      "content": "<SUF>",
      "single_word": false,
      "lstrip": false,
      "rstrip": false,
      "normalized": false,
      "special": true
    },
    {
      "id": 2,
      "content": "<MID>",
      "single_word": false,
      "lstrip": false,
      "rstrip": false,
      "normalized": false,
      "special": true
    },
    {
      "id": 3,
      "content": "<|im_start|>",
      "single_word": false,
      "lstrip": false,
      "rstrip": false,
      "normalized": false,
      "special": true
    },
    {
      "id": 4,
      "content": "<|im_end|>",
      "single_word": false,
      "lstrip": false,
      "rstrip": false,
      "normalized": false,
      "special": true
    },
    {
      "id": 5,
      "content": "<|tool_result|>",
      "single_word": false,
      "lstrip": false,
      "rstrip": false,
      "normalized": false,
      "special": true
    }
  ],
  "normalizer": null,
  "pre_tokenizer": {
    "type": "ByteLevel",
    "add_prefix_space": false,
    "trim_offsets": true,
    "use_regex": true
  },
  "post_processor": {
    "type": "ByteLevel",
    "add_prefix_space": true,
    "trim_offsets": false,
    "use_regex": true
  },
  "decoder": {
    "type": "ByteLevel",
    "add_prefix_space": true,
    "trim_offsets": true,
    "use_regex": true
  },
  "model": {
    "type": "BPE",
    "dropout": null,
    "unk_token": null,
    "continuing_subword_prefix": null,
    "end_of_word_suffix": null,
    "fuse_unk": false,
    "byte_fallback": false,
    "ignore_merges": false,
    "vocab": {
      "<PRE>": 0,
      "<SUF>": 1,
      "<MID>": 2,
      "<|im_start|>": 3,
      "<|im_end|>": 4,
      "<|tool_result|>": 5,
      "!": 6,
      "\"": 7,
      "#": 8,
      "$": 9,
      "%": 10,
      "&": 11,
      "'": 12,
      "(": 13,
      ")": 14,
      "*": 15,
      "+": 16,
      ",": 17,
      "-": 18,
      ".": 19,
      "/": 20,
      "0": 21,
      "1": 22,
      "2": 23,
      "3": 24,
      "4": 25,
      "5": 26,
      "6": 27,
      "7": 28,
      "8": 29,
      "9": 30,
      ":": 31,
      ";": 32,
      "<": 33,
      "=": 34,
      ">": 35,
      "?": 36,
      "@": 37,
      "A": 38,
      "B": 39,
      "C": 40,
      "D": 41,
      "E": 42,
      "F": 43,
      "G": 44,
      "H": 45,
      "I": 46,
      "J": 47,
      "K": 48,
      "L": 49,
      "M": 50,
      "N": 51,
      "O": 52,
      "P": 53,
      "Q": 54,
      "R": 55,
      "S": 56,
      "T": 57,
      "U": 58,
      "V": 59,
      "W": 60,
      "X": 61,
      "Y": 62,
      "Z": 63,
      "[": 64,
      "\\": 65,
      "]": 66,
      "^": 67,
      "_": 68,
      "`": 69,
      "a": 70,
      "b": 71,
      "c": 72,
      "d": 73,
      "e": 74,
      "f": 75,
      "g": 76,
      "h": 77,
      "i": 78,
      "j": 79,
      "k": 80,
      "l": 81,
      "m": 82,
      "n": 83,
      "o": 84,
      "p": 85,
      "q": 86,
      "r": 87,
      "s": 88,
      "t": 89,
      "u": 90,
      "v": 91,
      "w": 92,
      "x": 93,
      "y": 94,
      "z": 95,
      "{": 96,
      "|": 97,
      "}": 98,
      "~": 99,
      "¡": 100,
      "¢": 101,
      "£": 102,
      "¤": 103,
      "¥": 104,
      "¦": 105,
      "§": 106,
      "¨": 107,
      "©": 108,
      "ª": 109,
      "«": 110,
      "¬": 111,
      "®": 112,
      "¯": 113,
      "°": 114,
      "±": 115,
      "²": 116,
      "³": 117,
      "´": 118,
      "µ": 119,
      "¶": 120,
      "·": 121,
      "¸": 122,
      "¹": 123,
      "º": 124,
      "»": 125,
      "¼": 126,
      "½": 127,
      "¾": 128,
      "¿": 129,
      "À": 130,
      "Á": 131,
      "Â": 132,
      "Ã": 133,
      "Ä": 134,
      "Å": 135,
      "Æ": 136,
      "Ç": 137,
      "È": 138,
      "É": 139,
      "Ê": 140,
      "Ë": 141,
      "Ì": 142,
      "Í": 143,
      "Î": 144,
      "Ï": 145,
      "Ð": 146,
      "Ñ": 147,
      "Ò": 148,
      "Ó": 149,
      "Ô": 150,
      "Õ": 151,
      "Ö": 152,
      "×": 153,
      "Ø": 154,
      "Ù": 155,
      "Ú": 156,
      "Û": 157,
      "Ü": 158,
      "Ý": 159,
      "Þ": 160,
      "ß": 161,
      "à": 162,
      "á": 163,
      "â": 164,
      "ã": 165,
      "ä": 166,
      "å": 167,
      "æ": 168,
      "ç": 169,
      "è": 170,
      "é": 171,
      "ê": 172,
      "ë": 173,
      "ì": 174,
      "í": 175,
      "î": 176,
      "ï": 177,
      "ð": 178,
      "ñ": 179,
      "ò": 180,
      "ó": 181,
      "ô": 182,
      "õ": 183,
      "ö": 184,
      "÷": 185,
      "ø": 186,
      "ù": 187,
      "ú": 188,
      "û": 189,
      "ü": 190,
      "ý": 191,
      "þ": 192,
      "ÿ": 193,
      "Ā": 194,
      "ā": 195,
      "Ă": 196,
      "ă": 197,
      "Ą": 198,
      "ą": 199,
      "Ć": 200,
      "ć": 201,
      "Ĉ": 202,
      "ĉ": 203,
      "Ċ": 204,
      "ċ": 205,
      "Č": 206,
      "č": 207,
      "Ď": 208,
      "ď": 209,
      "Đ": 210,
      "đ": 211,
      "Ē": 212,
      "ē": 213,
      "Ĕ": 214,
      "ĕ": 215,
      "Ė": 216,
      "ė": 217,
      "Ę": 218,
      "ę": 219,
      "Ě": 220,
      "ě": 221,
      "Ĝ": 222,
      "ĝ": 223,
      "Ğ": 224,
      "ğ": 225,
      "Ġ": 226,
      "ġ": 227,
      "Ģ": 228,
      "ģ": 229,
      "Ĥ": 230,
      "ĥ": 231,
      "Ħ": 232,
      "ħ": 233,
      "Ĩ": 234,
      "ĩ": 235,
      "Ī": 236,
      "ī": 237,
      "Ĭ": 238,
      "ĭ": 239,
      "Į": 240,
      "į": 241,
      "İ": 242,
      "ı": 243,
      "Ĳ": 244,
      "ĳ": 245,
      "Ĵ": 246,
      "ĵ": 247,
      "Ķ": 248,
      "ķ": 249,
      "ĸ": 250,
      "Ĺ": 251,
      "ĺ": 252,
      "Ļ": 253,
      "ļ": 254,
      "Ľ": 255,
      "ľ": 256,
      "Ŀ": 257,
      "ŀ": 258,
      "Ł": 259,
      "ł": 260,
      "Ń": 261,
      "čĊ": 262,
      "im": 263,
      "<|": 264,
      "|>": 265,
      "ta": 266,
      "ĠĠ": 267,
      "sta": 268,
      "Ġi": 269,
      "er": 270,
      "ss": 271,
      "nd": 272,
      "rt": 273,
      "nt": 274,
      "io": 275,
      "end": 276,
      "start": 277,
      "Ġa": 278,
      "at": 279,
      "ug": 280,
      "ass": 281,
      "th": 282,
      "ser": 283,
      "re": 284,
      "Ġp": 285,
      "in": 286,
      "Ġc": 287,
      "or": 288,
      "Ġd": 289,
      "ĠĠĠ": 290,
      "ht": 291,
      "oug": 292,
      "thoug": 293,
      "thought": 294,
      "ud": 295,
      "udio": 296,
      "ista": 297,
      "user": 298,
      "assista": 299,
      "assistant": 300,
      "Ġaudio": 301,
      "Ġf": 302,
      "el": 303,
      "Ġh": 304,
      "``": 305,
      "lo": 306,
      "ing": 307,
      "Ġn": 308,
      "ĠC": 309,
      "ion": 310,
      "lass": 311,
      "ation": 312,
      "?<|": 313,
      "Ġfor": 314,
      "Ġ{": 315,
      "loat": 316,
      "le": 317,
      "Ġis": 318,
      "ations": 319,
      ".<|": 320,
      "rea": 321,
      "Ġv": 322,
      "ra": 323,
      "te": 324,
      "ple": 325,
      ".<": 326,
      "User": 327,
      "Ġit": 328,
      ".</": 329,
      "ram": 330,
      "ay": 331,
      "oc": 332,
      "op": 333,
      "ata": 334,
      "aram": 335,
      "Ġ0": 336,
      "Ġ=": 337,
      "Ġparam": 338,
      "Ġclass": 339,
      "Ġdata": 340,
      "```": 341,
      "ck": 342,
      "lt": 343,
      "Ġs": 344,
      "ess": 345,
      "roc": 346,
      "rocess": 347,
      "Ġth": 348,
      "to": 349,
      "hat": 350,
      "ou": 351,
      "++": 352,
      "Ġw": 353,
      "Ġm": 354,
      "*=": 355,
      "float": 356,
      "id": 357,
      "int": 358,
      "oid": 359,
      "Ġ<": 360,
      "Ġint": 361,
      "you": 362,
      "Ġyou": 363,
      "an": 364,
      "om": 365,
      "Ġop": 366,
      "Ġoper": 367,
      "What": 368,
      "ea": 369,
      "Ġde": 370,
      "Ġin": 371,
      "lug": 372,
      "Ġplug": 373,
      "Ġplugin": 374,
      "li": 375,
      "Ġto": 376,
      "elp": 377,
      "Ġhelp": 378,
      "ee": 379,
      "ve": 380,
      "Ġca": 381,
      "us": 382,
      "ĠM": 383,
      "()": 384,
      "Li": 385,
      "My": 386,
      "Pl": 387,
      "To": 388,
      "as": 389,
      "are": 390,
      "bug": 391,
      "eck": 392,
      "heck": 393,
      "kel": 394,
      "lations": 395,
      "ove": 396,
      "pare": 397,
      "ue": 398,
      "vy": 399,
      "Ġrea": 400,
      "ime": 401,
      "Ġiss": 402,
      "iolations": 403,
      "repare": 404,
      "Ġprepare": 405,
      "Ġhea": 406,
      "Ġhas": 407,
      "ĠCan": 408,
      "ĠCheck": 409,
      "read": 410,
      "Ġviolations": 411,
      "ltime": 412,
      "Ġthread": 413,
      "Ġoperations": 414,
      "Ġdebug": 415,
      "Ġcaus": 416,
      "ĠMove": 417,
      "().<|": 418,
      "Likel": 419,
      "Play": 420,
      "ToPlay": 421,
      "Ġrealtime": 422,
      "Ġissue": 423,
      "ĠprepareToPlay": 424,
      "Ġheavy": 425,
      "Ġcause": 426,
      "Likely": 427,
      "pu": 428,
      "al": 429,
      "Ġand": 430,
      "Ġprocess": 431,
      "Ġ(": 432,
      "Ġcom": 433,
      "pp": 434,
      "lic": 435,
      "Ġb": 436,
      "ri": 437,
      "ter": 438,
      "ĠD": 439,
      "Kee": 440,
      "Wri": 441,
      "ant": 442,
      "blic": 443,
      "class": 444,
      "cpp": 445,
      "};": 446,
      "Ġ}": 447,
      "Ġ++": 448,
      "Ġ*=": 449,
      "ĠKee": 450,
      "imple": 451,
      "imal": 452,
      "ĠĠĠĠ": 453,
      "inimal": 454,
      "Ġfloat": 455,
      "Ġvoid": 456,
      "plete": 457,
      "```<|": 458,
      "Ġsimple": 459,
      "Ġwant": 460,
      "Ġminimal": 461,
      "public": 462,
      "Ġcomplete": 463,
      "Write": 464,
      "ĠKeep": 465,
      "ĠĠĠĠĠĠĠ": 466,
      "Ġwants": 467,
      "ID": 468,
      "ĠR": 469,
      "MID": 470,
      "elay": 471,
      "::": 472,
      ";++": 473,
      "PR": 474,
      "SU": 475,
      "]*=": 476,
      "for": 477,
      "process": 478,
      "void": 479,
      "}<": 480,
      "PRE": 481,
      "SUF": 482,
      "Ġbu": 483,
      "ev": 484,
      "erb": 485,
      "ĠRev": 486,
      "ĠReverb": 487,
      "Hel": 488,
      "Hello": 489,
      "Fi": 490,
      "ĠFi": 491,
      "lter": 492,
      "ĠFilter": 493,
      "ĠDelay": 494,
      ";<|": 495,
      "ĠL": 496,
      "ĠWhat": 497,
      "Hi": 498,
      "ow": 499,
      "ĠI": 500,
      "is": 501,
      "He": 502,
      "Hey": 503,
      "pre": 504,
      "ssor": 505,
      "ĠCom": 506,
      "pressor": 507,
      "ĠCompressor": 508,
      "iter": 509,
      "imiter": 510,
      "ĠLimiter": 511,
      "ch": 512,
      "EQ": 513,
      "ĠEQ": 514,
      "ut": 515,
      "Ġst": 516,
      "Ġg": 517,
      "ping": 518,
      "Ġpop": 519,
      "Ġpopping": 520,
      "ling": 521,
      "Ġcra": 522,
      "ckling": 523,
      "Ġcrackling": 524,
      "zz": 525,
      "Ġbuzz": 526,
      "Ġbuzzing": 527,
      "rting": 528,
      "Ġdis": 529,
      "torting": 530,
      "Ġdistorting": 531,
      "ate": 532,
      "tch": 533,
      "litch": 534,
      "Ġglitch": 535,
      "Ġglitching": 536,
      "am": 537,
      "ample": 538,
      "od": 539,
      "tering": 540,
      "uttering": 541,
      "Ġstuttering": 542,
      "ew": 543,
      "cation": 544,
      "Ġre": 545,
      "Ġres": 546,
      "ĠS": 547,
      "Ġnee": 548,
      "Ġneed": 549,
      "ec": 550,
      "Ġcan": 551,
      "Ġsample": 552,
      "ere": 553,
      "Ġthere": 554,
      "ork": 555,
      "Ġwhat": 556,
      "Ġme": 557,
      "Ġthe": 558,
      "dy": 559,
      "et": 560,
      "ĠV": 561,
      "'s": 562,
      "ator": 563,
      "Ġnew": 564,
      "Ġoperator": 565,
      "ile": 566,
      "Ġfile": 567,
      "ute": 568,
      "Ġlo": 569,
      "Ġmute": 570,
      "Ġlock": 571,
      "Ġmutex": 572,
      "llo": 573,
      "Ġallo": 574,
      "Ġallocation": 575,
      "iz": 576,
      "tor": 577,
      "Ġvec": 578,
      "Ġresiz": 579,
      "Ġvector": 580,
      "Ġresize": 581,
      "ig": 582,
      "it": 583,
      "ĠA": 584,
      "Ġo": 585,
      "Ġare": 586,
      "ning": 587,
      "ood": 588,
      "How": 589,
      "ex": 590,
      "nex": 591,
      "ernex": 592,
      "ĠVernex": 593,
      "Ga": 594,
      "ĠGa": 595,
      "ĠGain": 596,
      "ST": 597,
      "Ġdo": 598,
      "Ġcod": 599,
      "eady": 600,
      "ĠReady": 601,
      "Ġcode": 602,
      "mat": 603,
      "Ġformat": 604,
      "cy": 605,
      "ncy": 606,
      "put": 607,
      "atency": 608,
      "SP": 609,
      "Good": 610,
      "tem": 611,
      "ita": 612,
      "pth": 613,
      "Ġsta": 614,
      "nds": 615,
      "Ġdepth": 616,
      "ĠDig": 617,
      "ital": 618,
      "Ġstands": 619,
      "ĠDigital": 620,
      "ff": 621,
      "ora": 622,
      "Ġbuff": 623,
      "Ġbuffer": 624,
      "AW": 625,
      "ith": 626,
      "Ġwith": 627,
      "ol": 628,
      "ĠHow": 629,
      "ssis": 630,
      "Ġassis": 631,
      "Ġsamples": 632,
      "Ġassist": 633,
      "'re": 634,
      "how": 635,
      "Ġwork": 636,
      "ĠShow": 637,
      "Ġon": 638,
      "Ġworking": 639,
      "ding": 640,
      "il": 641,
      "Ġwe": 642,
      "Ġbuil": 643,
      "Ġbuilding": 644,
      "rate": 645,
      "Ġrate": 646,
      "kn": 647,
      "Ġkn": 648,
      "ĠLet": 649,
      "Ġknow": 650,
      "CE": 651,
      "JU": 652,
      "JUCE": 653,
      "sk": 654,
      "Ġta": 655,
      "Ġtask": 656,
      "orning": 657,
      ";<": 658,
      "vening": 659,
      "Yo": 660,
      "up": 661,
      "VST": 662,
      "ber": 663,
      "reate": 664,
      "inber": 665,
      "Ġcreate": 666,
      "teinber": 667,
      "Ġby": 668,
      "ĠSteinber": 669,
      "ĠVST": 670,
      "Ġcreated": 671,
      "ĠSteinberg": 672,
      "Latency": 673,
      "latency": 674,
      "stem": 675,
      "tput": 676,
      "wee": 677,
      "ystem": 678,
      "Ġou": 679,
      "Ġlatency": 680,
      "Ġdelay": 681,
      "Ġsystem": 682,
      "Ġinput": 683,
      "Ġbet": 684,
      "ween": 685,
      "Ġoutput": 686,
      "Ġsystems": 687,
      "Ġbetween": 688,
      "DSP": 689,
      "Process": 690,
      "nal": 691,
      "ĠProcess": 692,
      "ĠDSP": 693,
      "ĠSig": 694,
      "ĠProcessing": 695,
      "ĠSignal": 696,
      "Bit": 697,
      "es": 698,
      "min": 699,
      "Ġea": 700,
      "Ġdeter": 701,
      "Ġbit": 702,
      "ution": 703,
      "Ġresol": 704,
      "Ġof": 705,
      "mines": 706,
      "Ġeach": 707,
      "Ġdetermines": 708,
      "Ġresolution": 709,
      "ge": 710,
      "pora": 711,
      "ry": 712,
      "ring": 713,
      "uring": 714,
      "Ġtem": 715,
      "Ġduring": 716,
      "Ġprocessing": 717,
      "Ġstora": 718,
      "porary": 719,
      "Ġtemporary": 720,
      "Ġstorage": 721,
      "AU": 722,
      "Audio": 723,
      "DAW": 724,
      "Un": 725,
      "Work": 726,
      "pple": 727,
      "tion": 728,
      "ĠUn": 729,
      "ĠWork": 730,
      "station": 731,
      "ĠDAW": 732,
      "ĠAU": 733,
      "ĠAudio": 734,
      "ĠApple": 735,
      "ĠUnit": 736,
      "ĠWorkstation": 737,
      "Sample": 738,
      "ond": 739,
      "pt": 740,
      "ure": 741,
      "Ġper": 742,
      "Ġhow": 743,
      "Ġsec": 744,
      "Ġman": 745,
      "Ġcapt": 746,
      "ured": 747,
      "Ġsecond": 748,
      "Ġmany": 749,
      "Ġcaptured": 750,
      "cal": 751,
      "ent": 752,
      "ication": 753,
      "ical": 754,
      "mu": 755,
      "ment": 756,
      "nication": 757,
      "ot": 758,
      "ru": 759,
      "rot": 760,
      "st": 761,
      "Ġprot": 762,
      "ocol": 763,
      "Ġmus": 764,
      "Ġinst": 765,
      "ĠMID": 766,
      "Ġcommu": 767,
      "MIDI": 768,
      "rument": 769,
      "Ġprotocol": 770,
      "Ġmusical": 771,
      "Ġinstrument": 772,
      "ĠMIDI": 773,
      "Ġcommunication": 774,
      "ĠJUCE": 775,
      "Ġapp": 776,
      "Ġfram": 777,
      "Ġplugins": 778,
      "lications": 779,
      "ework": 780,
      "Ġapplications": 781,
      "Ġframework": 782,
      "Morning": 783,
      "uddy": 784,
      "Ġbuddy": 785,
      "Howdy": 786,
      "Ġfri": 787,
      "Whats": 788,
      "Ġgood": 789,
      "Ġfriend": 790,
      "evening": 791,
      "fter": 792,
      "no": 793,
      "on": 794,
      "Ġevening": 795,
      "Ġafter": 796,
      "noon": 797,
      "Ġafternoon": 798,
      "Ġmorning": 799,
      "Evening": 800,
      "Gre": 801,
      "ings": 802,
      "etings": 803,
      "Greetings": 804,
      "Sup": 805,
      "Ġup": 806,
      "86": 807,
      "22": 808,
      "31": 809,
      "41": 810,
      "13": 811,
      "34": 812,
      "89": 813,
      "33": 814,
      "49": 815,
      "51": 816,
      "65": 817,
      "92": 818,
      "98": 819,
      "14": 820,
      "16": 821,
      "56": 822,
      "58": 823,
      "76": 824,
      "88": 825,
      "26": 826,
      "64": 827,
      "91": 828,
      "29": 829,
      "32": 830,
      "48": 831,
      "67": 832,
      "74": 833,
      "75": 834,
      "85": 835,
      "95": 836,
      "18": 837,
      "19": 838,
      "37": 839,
      "39": 840,
      "62": 841,
      "78": 842,
      "94": 843,
      "97": 844,
      "99": 845,
      "25": 846,
      "35": 847,
      "45": 848,
      "87": 849,
      "11": 850,
      "21": 851,
      "24": 852,
      "43": 853,
      "52": 854,
      "63": 855,
      "68": 856,
      "71": 857,
      "72": 858,
      "93": 859,
      "17": 860,
      "23": 861,
      "28": 862,
      "36": 863,
      "73": 864,
      "79": 865,
      "38": 866,
      "77": 867,
      "82": 868,
      "83": 869,
      "12": 870,
      "44": 871,
      "46": 872,
      "53": 873,
      "54": 874,
      "27": 875,
      "57": 876,
      "42": 877,
      "55": 878,
      "61": 879,
      "66": 880,
      "69": 881,
      "84": 882,
      "15": 883,
      "47": 884,
      "96": 885,
      "59": 886,
      "81": 887
    },
    "merges": [
      [
        "č",
        "Ċ"
      ],
      [
        "i",
        "m"
      ],
      [
        "<",
        "|"
      ],
      [
        "|",
        ">"
      ],
      [
        "t",
        "a"
      ],
      [
        "Ġ",
        "Ġ"
      ],
      [
        "s",
        "ta"
      ],
      [
        "Ġ",
        "i"
      ],
      [
        "e",
        "r"
      ],
      [
        "s",
        "s"
      ],
      [
        "n",
        "d"
      ],
      [
        "r",
        "t"
      ],
      [
        "n",
        "t"
      ],
      [
        "i",
        "o"
      ],
      [
        "e",
        "nd"
      ],
      [
        "sta",
        "rt"
      ],
      [
        "Ġ",
        "a"
      ],
      [
        "a",
        "t"
      ],
      [
        "u",
        "g"
      ],
      [
        "a",
        "ss"
      ],
      [
        "t",
        "h"
      ],
      [
        "s",
        "er"
      ],
      [
        "r",
        "e"
      ],
      [
        "Ġ",
        "p"
      ],
      [
        "i",
        "n"
      ],
      [
        "Ġ",
        "c"
      ],
      [
        "o",
        "r"
      ],
      [
        "Ġ",
        "d"
      ],
      [
        "ĠĠ",
        "Ġ"
      ],
      [
        "h",
        "t"
      ],
      [
        "o",
        "ug"
      ],
      [
        "th",
        "oug"
      ],
      [
        "thoug",
        "ht"
      ],
      [
        "u",
        "d"
      ],
      [
        "ud",
        "io"
      ],
      [
        "i",
        "sta"
      ],
      [
        "u",
        "ser"
      ],
      [
        "ass",
        "ista"
      ],
      [
        "assista",
        "nt"
      ],
      [
        "Ġa",
        "udio"
      ],
      [
        "Ġ",
        "f"
      ],
      [
        "e",
        "l"
      ],
      [
        "Ġ",
        "h"
      ],
      [
        "`",
        "`"
      ],
      [
        "l",
        "o"
      ],
      [
        "in",
        "g"
      ],
      [
        "Ġ",
        "n"
      ],
      [
        "Ġ",
        "C"
      ],
      [
        "io",
        "n"
      ],
      [
        "l",
        "ass"
      ],
      [
        "at",
        "ion"
      ],
      [
        "?",
        "<|"
      ],
      [
        "Ġf",
        "or"
      ],
      [
        "Ġ",
        "{"
      ],
      [
        "lo",
        "at"
      ],
      [
        "l",
        "e"
      ],
      [
        "Ġi",
        "s"
      ],
      [
        "ation",
        "s"
      ],
      [
        ".",
        "<|"
      ],
      [
        "re",
        "a"
      ],
      [
        "Ġ",
        "v"
      ],
      [
        "r",
        "a"
      ],
      [
        "t",
        "e"
      ],
      [
        "p",
        "le"
      ],
      [
        ".",
        "<"
      ],
      [
        "U",
        "ser"
      ],
      [
        "Ġi",
        "t"
      ],
      [
        ".<",
        "/"
      ],
      [
        "ra",
        "m"
      ],
      [
        "a",
        "y"
      ],
      [
        "o",
        "c"
      ],
      [
        "o",
        "p"
      ],
      [
        "a",
        "ta"
      ],
      [
        "a",
        "ram"
      ],
      [
        "Ġ",
        "0"
      ],
      [
        "Ġ",
        "="
      ],
      [
        "Ġp",
        "aram"
      ],
      [
        "Ġc",
        "lass"
      ],
      [
        "Ġd",
        "ata"
      ],
      [
        "``",
        "`"
      ],
      [
        "c",
        "k"
      ],
      [
        "l",
        "t"
      ],
      [
        "Ġ",
        "s"
      ],
      [
        "e",
        "ss"
      ],
      [
        "r",
        "oc"
      ],
      [
        "roc",
        "ess"
      ],
      [
        "Ġ",
        "th"
      ],
      [
        "t",
        "o"
      ],
      [
        "h",
        "at"
      ],
      [
        "o",
        "u"
      ],
      [
        "+",
        "+"
      ],
      [
        "Ġ",
        "w"
      ],
      [
        "Ġ",
        "m"
      ],
      [
        "*",
        "="
      ],
      [
        "f",
        "loat"
      ],
      [
        "i",
        "d"
      ],
      [
        "i",
        "nt"
      ],
      [
        "o",
        "id"
      ],
      [
        "Ġ",
        "<"
      ],
      [
        "Ġi",
        "nt"
      ],
      [
        "y",
        "ou"
      ],
      [
        "Ġ",
        "you"
      ],
      [
        "a",
        "n"
      ],
      [
        "o",
        "m"
      ],
      [
        "Ġ",
        "op"
      ],
      [
        "Ġop",
        "er"
      ],
      [
        "W",
        "hat"
      ],
      [
        "e",
        "a"
      ],
      [
        "Ġd",
        "e"
      ],
      [
        "Ġi",
        "n"
      ],
      [
        "l",
        "ug"
      ],
      [
        "Ġp",
        "lug"
      ],
      [
        "Ġplug",
        "in"
      ],
      [
        "l",
        "i"
      ],
      [
        "Ġ",
        "to"
      ],
      [
        "el",
        "p"
      ],
      [
        "Ġh",
        "elp"
      ],
      [
        "e",
        "e"
      ],
      [
        "v",
        "e"
      ],
      [
        "Ġc",
        "a"
      ],
      [
        "u",
        "s"
      ],
      [
        "Ġ",
        "M"
      ],
      [
        "(",
        ")"
      ],
      [
        "L",
        "i"
      ],
      [
        "M",
        "y"
      ],
      [
        "P",
        "l"
      ],
      [
        "T",
        "o"
      ],
      [
        "a",
        "s"
      ],
      [
        "a",
        "re"
      ],
      [
        "b",
        "ug"
      ],
      [
        "e",
        "ck"
      ],
      [
        "h",
        "eck"
      ],
      [
        "k",
        "el"
      ],
      [
        "l",
        "ations"
      ],
      [
        "o",
        "ve"
      ],
      [
        "p",
        "are"
      ],
      [
        "u",
        "e"
      ],
      [
        "v",
        "y"
      ],
      [
        "Ġ",
        "rea"
      ],
      [
        "im",
        "e"
      ],
      [
        "Ġi",
        "ss"
      ],
      [
        "io",
        "lations"
      ],
      [
        "re",
        "pare"
      ],
      [
        "Ġp",
        "repare"
      ],
      [
        "Ġh",
        "ea"
      ],
      [
        "Ġh",
        "as"
      ],
      [
        "ĠC",
        "an"
      ],
      [
        "ĠC",
        "heck"
      ],
      [
        "rea",
        "d"
      ],
      [
        "Ġv",
        "iolations"
      ],
      [
        "lt",
        "ime"
      ],
      [
        "Ġth",
        "read"
      ],
      [
        "Ġoper",
        "ations"
      ],
      [
        "Ġde",
        "bug"
      ],
      [
        "Ġca",
        "us"
      ],
      [
        "ĠM",
        "ove"
      ],
      [
        "()",
        ".<|"
      ],
      [
        "Li",
        "kel"
      ],
      [
        "Pl",
        "ay"
      ],
      [
        "To",
        "Play"
      ],
      [
        "Ġrea",
        "ltime"
      ],
      [
        "Ġiss",
        "ue"
      ],
      [
        "Ġprepare",
        "ToPlay"
      ],
      [
        "Ġhea",
        "vy"
      ],
      [
        "Ġcaus",
        "e"
      ],
      [
        "Likel",
        "y"
      ],
      [
        "p",
        "u"
      ],
      [
        "a",
        "l"
      ],
      [
        "Ġa",
        "nd"
      ],
      [
        "Ġp",
        "rocess"
      ],
      [
        "Ġ",
        "("
      ],
      [
        "Ġc",
        "om"
      ],
      [
        "p",
        "p"
      ],
      [
        "li",
        "c"
      ],
      [
        "Ġ",
        "b"
      ],
      [
        "r",
        "i"
      ],
      [
        "t",
        "er"
      ],
      [
        "Ġ",
        "D"
      ],
      [
        "K",
        "ee"
      ],
      [
        "W",
        "ri"
      ],
      [
        "a",
        "nt"
      ],
      [
        "b",
        "lic"
      ],
      [
        "c",
        "lass"
      ],
      [
        "c",
        "pp"
      ],
      [
        "}",
        ";"
      ],
      [
        "Ġ",
        "}"
      ],
      [
        "Ġ",
        "++"
      ],
      [
        "Ġ",
        "*="
      ],
      [
        "Ġ",
        "Kee"
      ],
      [
        "im",
        "ple"
      ],
      [
        "im",
        "al"
      ],
      [
        "ĠĠ",
        "ĠĠ"
      ],
      [
        "in",
        "imal"
      ],
      [
        "Ġf",
        "loat"
      ],
      [
        "Ġv",
        "oid"
      ],
      [
        "ple",
        "te"
      ],
      [
        "```",
        "<|"
      ],
      [
        "Ġs",
        "imple"
      ],
      [
        "Ġw",
        "ant"
      ],
      [
        "Ġm",
        "inimal"
      ],
      [
        "pu",
        "blic"
      ],
      [
        "Ġcom",
        "plete"
      ],
      [
        "Wri",
        "te"
      ],
      [
        "ĠKee",
        "p"
      ],
      [
        "ĠĠĠĠ",
        "ĠĠĠ"
      ],
      [
        "Ġwant",
        "s"
      ],
      [
        "I",
        "D"
      ],
      [
        "Ġ",
        "R"
      ],
      [
        "M",
        "ID"
      ],
      [
        "el",
        "ay"
      ],
      [
        ":",
        ":"
      ],
      [
        ";",
        "++"
      ],
      [
        "P",
        "R"
      ],
      [
        "S",
        "U"
      ],
      [
        "]",
        "*="
      ],
      [
        "f",
        "or"
      ],
      [
        "p",
        "rocess"
      ],
      [
        "v",
        "oid"
      ],
      [
        "}",
        "<"
      ],
      [
        "PR",
        "E"
      ],
      [
        "SU",
        "F"
      ],
      [
        "Ġb",
        "u"
      ],
      [
        "e",
        "v"
      ],
      [
        "er",
        "b"
      ],
      [
        "ĠR",
        "ev"
      ],
      [
        "ĠRev",
        "erb"
      ],
      [
        "H",
        "el"
      ],
      [
        "Hel",
        "lo"
      ],
      [
        "F",
        "i"
      ],
      [
        "Ġ",
        "Fi"
      ],
      [
        "lt",
        "er"
      ],
      [
        "ĠFi",
        "lter"
      ],
      [
        "ĠD",
        "elay"
      ],
      [
        ";",
        "<|"
      ],
      [
        "Ġ",
        "L"
      ],
      [
        "Ġ",
        "What"
      ],
      [
        "H",
        "i"
      ],
      [
        "o",
        "w"
      ],
      [
        "Ġ",
        "I"
      ],
      [
        "i",
        "s"
      ],
      [
        "H",
        "e"
      ],
      [
        "He",
        "y"
      ],
      [
        "p",
        "re"
      ],
      [
        "ss",
        "or"
      ],
      [
        "ĠC",
        "om"
      ],
      [
        "pre",
        "ssor"
      ],
      [
        "ĠCom",
        "pressor"
      ],
      [
        "i",
        "ter"
      ],
      [
        "im",
        "iter"
      ],
      [
        "ĠL",
        "imiter"
      ],
      [
        "c",
        "h"
      ],
      [
        "E",
        "Q"
      ],
      [
        "Ġ",
        "EQ"
      ],
      [
        "u",
        "t"
      ],
      [
        "Ġs",
        "t"
      ],
      [
        "Ġ",
        "g"
      ],
      [
        "p",
        "ing"
      ],
      [
        "Ġp",
        "op"
      ],
      [
        "Ġpop",
        "ping"
      ],
      [
        "l",
        "ing"
      ],
      [
        "Ġc",
        "ra"
      ],
      [
        "ck",
        "ling"
      ],
      [
        "Ġcra",
        "ckling"
      ],
      [
        "z",
        "z"
      ],
      [
        "Ġbu",
        "zz"
      ],
      [
        "Ġbuzz",
        "ing"
      ],
      [
        "rt",
        "ing"
      ],
      [
        "Ġd",
        "is"
      ],
      [
        "to",
        "rting"
      ],
      [
        "Ġdis",
        "torting"
      ],
      [
        "at",
        "e"
      ],
      [
        "t",
        "ch"
      ],
      [
        "li",
        "tch"
      ],
      [
        "Ġg",
        "litch"
      ],
      [
        "Ġglitch",
        "ing"
      ],
      [
        "a",
        "m"
      ],
      [
        "am",
        "ple"
      ],
      [
        "o",
        "d"
      ],
      [
        "ter",
        "ing"
      ],
      [
        "ut",
        "tering"
      ],
      [
        "Ġst",
        "uttering"
      ],
      [
        "e",
        "w"
      ],
      [
        "c",
        "ation"
      ],
      [
        "Ġ",
        "re"
      ],
      [
        "Ġre",
        "s"
      ],
      [
        "Ġ",
        "S"
      ],
      [
        "Ġn",
        "ee"
      ],
      [
        "Ġnee",
        "d"
      ],
      [
        "e",
        "c"
      ],
      [
        "Ġc",
        "an"
      ],
      [
        "Ġs",
        "ample"
      ],
      [
        "er",
        "e"
      ],
      [
        "Ġth",
        "ere"
      ],
      [
        "or",
        "k"
      ],
      [
        "Ġw",
        "hat"
      ],
      [
        "Ġm",
        "e"
      ],
      [
        "Ġth",
        "e"
      ],
      [
        "d",
        "y"
      ],
      [
        "e",
        "t"
      ],
      [
        "Ġ",
        "V"
      ],
      [
        "'",
        "s"
      ],
      [
        "at",
        "or"
      ],
      [
        "Ġn",
        "ew"
      ],
      [
        "Ġoper",
        "ator"
      ],
      [
        "i",
        "le"
      ],
      [
        "Ġf",
        "ile"
      ],
      [
        "u",
        "te"
      ],
      [
        "Ġ",
        "lo"
      ],
      [
        "Ġm",
        "ute"
      ],
      [
        "Ġlo",
        "ck"
      ],
      [
        "Ġmute",
        "x"
      ],
      [
        "l",
        "lo"
      ],
      [
        "Ġa",
        "llo"
      ],
      [
        "Ġallo",
        "cation"
      ],
      [
        "i",
        "z"
      ],
      [
        "t",
        "or"
      ],
      [
        "Ġv",
        "ec"
      ],
      [
        "Ġres",
        "iz"
      ],
      [
        "Ġvec",
        "tor"
      ],
      [
        "Ġresiz",
        "e"
      ],
      [
        "i",
        "g"
      ],
      [
        "i",
        "t"
      ],
      [
        "Ġ",
        "A"
      ],
      [
        "Ġ",
        "o"
      ],
      [
        "Ġa",
        "re"
      ],
      [
        "n",
        "ing"
      ],
      [
        "o",
        "od"
      ],
      [
        "H",
        "ow"
      ],
      [
        "e",
        "x"
      ],
      [
        "n",
        "ex"
      ],
      [
        "er",
        "nex"
      ],
      [
        "ĠV",
        "ernex"
      ],
      [
        "G",
        "a"
      ],
      [
        "Ġ",
        "Ga"
      ],
      [
        "ĠGa",
        "in"
      ],
      [
        "S",
        "T"
      ],
      [
        "Ġd",
        "o"
      ],
      [
        "Ġc",
        "od"
      ],
      [
        "ea",
        "dy"
      ],
      [
        "ĠR",
        "eady"
      ],
      [
        "Ġcod",
        "e"
      ],
      [
        "m",
        "at"
      ],
      [
        "Ġfor",
        "mat"
      ],
      [
        "c",
        "y"
      ],
      [
        "n",
        "cy"
      ],
      [
        "pu",
        "t"
      ],
      [
        "ate",
        "ncy"
      ],
      [
        "S",
        "P"
      ],
      [
        "G",
        "ood"
      ],
      [
        "te",
        "m"
      ],
      [
        "i",
        "ta"
      ],
      [
        "p",
        "th"
      ],
      [
        "Ġ",
        "sta"
      ],
      [
        "nd",
        "s"
      ],
      [
        "Ġde",
        "pth"
      ],
      [
        "ĠD",
        "ig"
      ],
      [
        "ita",
        "l"
      ],
      [
        "Ġsta",
        "nds"
      ],
      [
        "ĠDig",
        "ital"
      ],
      [
        "f",
        "f"
      ],
      [
        "or",
        "a"
      ],
      [
        "Ġbu",
        "ff"
      ],
      [
        "Ġbuff",
        "er"
      ],
      [
        "A",
        "W"
      ],
      [
        "i",
        "th"
      ],
      [
        "Ġw",
        "ith"
      ],
      [
        "o",
        "l"
      ],
      [
        "Ġ",
        "How"
      ],
      [
        "ss",
        "is"
      ],
      [
        "Ġa",
        "ssis"
      ],
      [
        "Ġsample",
        "s"
      ],
      [
        "Ġassis",
        "t"
      ],
      [
        "'",
        "re"
      ],
      [
        "h",
        "ow"
      ],
      [
        "Ġw",
        "ork"
      ],
      [
        "ĠS",
        "how"
      ],
      [
        "Ġo",
        "n"
      ],
      [
        "Ġwork",
        "ing"
      ],
      [
        "d",
        "ing"
      ],
      [
        "i",
        "l"
      ],
      [
        "Ġw",
        "e"
      ],
      [
        "Ġbu",
        "il"
      ],
      [
        "Ġbuil",
        "ding"
      ],
      [
        "r",
        "ate"
      ],
      [
        "Ġ",
        "rate"
      ],
      [
        "k",
        "n"
      ],
      [
        "Ġ",
        "kn"
      ],
      [
        "ĠL",
        "et"
      ],
      [
        "Ġkn",
        "ow"
      ],
      [
        "C",
        "E"
      ],
      [
        "J",
        "U"
      ],
      [
        "JU",
        "CE"
      ],
      [
        "s",
        "k"
      ],
      [
        "Ġ",
        "ta"
      ],
      [
        "Ġta",
        "sk"
      ],
      [
        "or",
        "ning"
      ],
      [
        ";",
        "<"
      ],
      [
        "ve",
        "ning"
      ],
      [
        "Y",
        "o"
      ],
      [
        "u",
        "p"
      ],
      [
        "V",
        "ST"
      ],
      [
        "b",
        "er"
      ],
      [
        "re",
        "ate"
      ],
      [
        "in",
        "ber"
      ],
      [
        "Ġc",
        "reate"
      ],
      [
        "te",
        "inber"
      ],
      [
        "Ġb",
        "y"
      ],
      [
        "ĠS",
        "teinber"
      ],
      [
        "ĠV",
        "ST"
      ],
      [
        "Ġcreate",
        "d"
      ],
      [
        "ĠSteinber",
        "g"
      ],
      [
        "L",
        "atency"
      ],
      [
        "l",
        "atency"
      ],
      [
        "s",
        "tem"
      ],
      [
        "t",
        "put"
      ],
      [
        "w",
        "ee"
      ],
      [
        "y",
        "stem"
      ],
      [
        "Ġ",
        "ou"
      ],
      [
        "Ġ",
        "latency"
      ],
      [
        "Ġd",
        "elay"
      ],
      [
        "Ġs",
        "ystem"
      ],
      [
        "Ġin",
        "put"
      ],
      [
        "Ġb",
        "et"
      ],
      [
        "wee",
        "n"
      ],
      [
        "Ġou",
        "tput"
      ],
      [
        "Ġsystem",
        "s"
      ],
      [
        "Ġbet",
        "ween"
      ],
      [
        "D",
        "SP"
      ],
      [
        "P",
        "rocess"
      ],
      [
        "n",
        "al"
      ],
      [
        "Ġ",
        "Process"
      ],
      [
        "ĠD",
        "SP"
      ],
      [
        "ĠS",
        "ig"
      ],
      [
        "ĠProcess",
        "ing"
      ],
      [
        "ĠSig",
        "nal"
      ],
      [
        "B",
        "it"
      ],
      [
        "e",
        "s"
      ],
      [
        "m",
        "in"
      ],
      [
        "Ġ",
        "ea"
      ],
      [
        "Ġde",
        "ter"
      ],
      [
        "Ġb",
        "it"
      ],
      [
        "ut",
        "ion"
      ],
      [
        "Ġres",
        "ol"
      ],
      [
        "Ġo",
        "f"
      ],
      [
        "min",
        "es"
      ],
      [
        "Ġea",
        "ch"
      ],
      [
        "Ġdeter",
        "mines"
      ],
      [
        "Ġresol",
        "ution"
      ],
      [
        "g",
        "e"
      ],
      [
        "p",
        "ora"
      ],
      [
        "r",
        "y"
      ],
      [
        "r",
        "ing"
      ],
      [
        "u",
        "ring"
      ],
      [
        "Ġ",
        "tem"
      ],
      [
        "Ġd",
        "uring"
      ],
      [
        "Ġprocess",
        "ing"
      ],
      [
        "Ġst",
        "ora"
      ],
      [
        "pora",
        "ry"
      ],
      [
        "Ġtem",
        "porary"
      ],
      [
        "Ġstora",
        "ge"
      ],
      [
        "A",
        "U"
      ],
      [
        "A",
        "udio"
      ],
      [
        "D",
        "AW"
      ],
      [
        "U",
        "n"
      ],
      [
        "W",
        "ork"
      ],
      [
        "p",
        "ple"
      ],
      [
        "t",
        "ion"
      ],
      [
        "Ġ",
        "Un"
      ],
      [
        "Ġ",
        "Work"
      ],
      [
        "sta",
        "tion"
      ],
      [
        "ĠD",
        "AW"
      ],
      [
        "ĠA",
        "U"
      ],
      [
        "ĠA",
        "udio"
      ],
      [
        "ĠA",
        "pple"
      ],
      [
        "ĠUn",
        "it"
      ],
      [
        "ĠWork",
        "station"
      ],
      [
        "S",
        "ample"
      ],
      [
        "o",
        "nd"
      ],
      [
        "p",
        "t"
      ],
      [
        "u",
        "re"
      ],
      [
        "Ġp",
        "er"
      ],
      [
        "Ġh",
        "ow"
      ],
      [
        "Ġs",
        "ec"
      ],
      [
        "Ġm",
        "an"
      ],
      [
        "Ġca",
        "pt"
      ],
      [
        "ure",
        "d"
      ],
      [
        "Ġsec",
        "ond"
      ],
      [
        "Ġman",
        "y"
      ],
      [
        "Ġcapt",
        "ured"
      ],
      [
        "c",
        "al"
      ],
      [
        "e",
        "nt"
      ],
      [
        "i",
        "cation"
      ],
      [
        "i",
        "cal"
      ],
      [
        "m",
        "u"
      ],
      [
        "m",
        "ent"
      ],
      [
        "n",
        "ication"
      ],
      [
        "o",
        "t"
      ],
      [
        "r",
        "u"
      ],
      [
        "r",
        "ot"
      ],
      [
        "s",
        "t"
      ],
      [
        "Ġp",
        "rot"
      ],
      [
        "oc",
        "ol"
      ],
      [
        "Ġm",
        "us"
      ],
      [
        "Ġin",
        "st"
      ],
      [
        "ĠM",
        "ID"
      ],
      [
        "Ġcom",
        "mu"
      ],
      [
        "MID",
        "I"
      ],
      [
        "ru",
        "ment"
      ],
      [
        "Ġprot",
        "ocol"
      ],
      [
        "Ġmus",
        "ical"
      ],
      [
        "Ġinst",
        "rument"
      ],
      [
        "ĠMID",
        "I"
      ],
      [
        "Ġcommu",
        "nication"
      ],
      [
        "Ġ",
        "JUCE"
      ],
      [
        "Ġa",
        "pp"
      ],
      [
        "Ġf",
        "ram"
      ],
      [
        "Ġplugin",
        "s"
      ],
      [
        "lic",
        "ations"
      ],
      [
        "ew",
        "ork"
      ],
      [
        "Ġapp",
        "lications"
      ],
      [
        "Ġfram",
        "ework"
      ],
      [
        "M",
        "orning"
      ],
      [
        "ud",
        "dy"
      ],
      [
        "Ġb",
        "uddy"
      ],
      [
        "How",
        "dy"
      ],
      [
        "Ġf",
        "ri"
      ],
      [
        "What",
        "s"
      ],
      [
        "Ġg",
        "ood"
      ],
      [
        "Ġfri",
        "end"
      ],
      [
        "e",
        "vening"
      ],
      [
        "f",
        "ter"
      ],
      [
        "n",
        "o"
      ],
      [
        "o",
        "n"
      ],
      [
        "Ġ",
        "evening"
      ],
      [
        "Ġa",
        "fter"
      ],
      [
        "no",
        "on"
      ],
      [
        "Ġafter",
        "noon"
      ],
      [
        "Ġm",
        "orning"
      ],
      [
        "E",
        "vening"
      ],
      [
        "G",
        "re"
      ],
      [
        "ing",
        "s"
      ],
      [
        "et",
        "ings"
      ],
      [
        "Gre",
        "etings"
      ],
      [
        "S",
        "up"
      ],
      [
        "Ġ",
        "up"
      ],
      [
        "8",
        "6"
      ],
      [
        "2",
        "2"
      ],
      [
        "3",
        "1"
      ],
      [
        "4",
        "1"
      ],
      [
        "1",
        "3"
      ],
      [
        "3",
        "4"
      ],
      [
        "8",
        "9"
      ],
      [
        "3",
        "3"
      ],
      [
        "4",
        "9"
      ],
      [
        "5",
        "1"
      ],
      [
        "6",
        "5"
      ],
      [
        "9",
        "2"
      ],
      [
        "9",
        "8"
      ],
      [
        "1",
        "4"
      ],
      [
        "1",
        "6"
      ],
      [
        "5",
        "6"
      ],
      [
        "5",
        "8"
      ],
      [
        "7",
        "6"
      ],
      [
        "8",
        "8"
      ],
      [
        "2",
        "6"
      ],
      [
        "6",
        "4"
      ],
      [
        "9",
        "1"
      ],
      [
        "2",
        "9"
      ],
      [
        "3",
        "2"
      ],
      [
        "4",
        "8"
      ],
      [
        "6",
        "7"
      ],
      [
        "7",
        "4"
      ],
      [
        "7",
        "5"
      ],
      [
        "8",
        "5"
      ],
      [
        "9",
        "5"
      ],
      [
        "1",
        "8"
      ],
      [
        "1",
        "9"
      ],
      [
        "3",
        "7"
      ],
      [
        "3",
        "9"
      ],
      [
        "6",
        "2"
      ],
      [
        "7",
        "8"
      ],
      [
        "9",
        "4"
      ],
      [
        "9",
        "7"
      ],
      [
        "9",
        "9"
      ],
      [
        "2",
        "5"
      ],
      [
        "3",
        "5"
      ],
      [
        "4",
        "5"
      ],
      [
        "8",
        "7"
      ],
      [
        "1",
        "1"
      ],
      [
        "2",
        "1"
      ],
      [
        "2",
        "4"
      ],
      [
        "4",
        "3"
      ],
      [
        "5",
        "2"
      ],
      [
        "6",
        "3"
      ],
      [
        "6",
        "8"
      ],
      [
        "7",
        "1"
      ],
      [
        "7",
        "2"
      ],
      [
        "9",
        "3"
      ],
      [
        "1",
        "7"
      ],
      [
        "2",
        "3"
      ],
      [
        "2",
        "8"
      ],
      [
        "3",
        "6"
      ],
      [
        "7",
        "3"
      ],
      [
        "7",
        "9"
      ],
      [
        "3",
        "8"
      ],
      [
        "7",
        "7"
      ],
      [
        "8",
        "2"
      ],
      [
        "8",
        "3"
      ],
      [
        "1",
        "2"
      ],
      [
        "4",
        "4"
      ],
      [
        "4",
        "6"
      ],
      [
        "5",
        "3"
      ],
      [
        "5",
        "4"
      ],
      [
        "2",
        "7"
      ],
      [
        "5",
        "7"
      ],
      [
        "4",
        "2"
      ],
      [
        "5",
        "5"
      ],
      [
        "6",
        "1"
      ],
      [
        "6",
        "6"
      ],
      [
        "6",
        "9"
      ],
      [
        "8",
        "4"
      ],
      [
        "1",
        "5"
      ],
      [
        "4",
        "7"
      ],
      [
        "9",
        "6"
      ],
      [
        "5",
        "9"
      ],
      [
        "8",
        "1"
      ]
    ]
  }
}